#version: 0.2
Ġ t
Ġ a
h e
i n
e r
Ġt he
o n
č Ċ
r e
Ġ o
a t
Ġ s
a n
e n
Ġ c
e s
i s
Ġ w
e d
a l
o r
i t
Ġo f
Ġa n
Ġ p
a r
Ġ b
Ġ f
Ġ in
Ġ m
i c
Ġan d
in g
o s
i on
o u
a s
Ġt o
Ġ d
l e
o m
Ġ h
en t
Ġt h
Ġ A
e os
Ġ l
i l
Ġ e
c t
u s
r o
Ġ T
Ġ is
Ġ n
Ġ re
e l
o l
Ġ S
at ion
e t
i m
Ġ g
a m
i d
Ġ C
o t
Ġb e
c e
u r
v e
l y
c h
Ġ 1
v er
a d
u t
s t
i g
Ġ I
Ġ M
Ġf or
i r
Ġ (
o w
Ġ on
u n
ĠT he
Ġs t
he r
Ġa s
Ġa re
a y
Ġth at
o p
u l
is t
Ġ P
Ġa l
Ġ B
t h
t er
r a
Ġ E
ou n
Ġo r
it h
Ġw h
u m
Ġc on
i es
an d
Ġ it
e m
Ġw ith
er s
Ġw as
i f
o d
Ġp ro
Ġb y
Ġ R
a g
r om
Ġ H
â Ģ
Ġ F
Ġc om
Ġ N
es t
Ġ G
Ġ 2
Ġ W
Ġd e
re s
p e
Ġ r
l d
Ġ L
Ġe x
i v
Ġ D
a in
il l
Ġ us
it y
Ġf rom
al l
a k
s e
Ġa t
a b
at e
t s
Ġs u
o re
ĠI n
a c
t her
0 0
m ent
i al
Ġ he
' s
i a
u d
Ġ1 9
Ġh a
Ġ U
Ġs e
Ġ v
ic h
q u
o c
ig h
Ġ k
Ġ J
i ve
a p
i an
Ġ O
es s
ic al
Ġn ot
b er
Ġ "
u re
o g
ar t
Ġw or
Ġ y
an t
Ġn e
t r
p p
Ġc an
Ġha ve
e ct
T he
Ġwh ich
or t
Ġ un
om e
g h
Ġ le
Ġc h
os t
ou r
el l
Ġp l
ar y
oun d
at ed
an g
e op
Ġ en
Ġ âĢ
er e
ion s
eop le
Ġs h
Ġ K
s o
Ġa b
i p
Ġh as
is h
Ġa r
on g
an y
ou t
ou gh
p er
i b
Ġw ere
am e
ar d
at er
Ġo ther
ou s
e ar
as t
r u
e p
c l
i z
Ġcom p
an s
Ġp eople
in e
ation s
Ġ -
Ġal so
igh t
id e
Ġw he
f er
Ġthe ir
Ġthe y
ĠU n
d u
d er
m er
e w
ou ld
ul t
at es
r it
a ct
Ġbe c
Ġal l
i k
p l
Ġth is
Ġt r
as s
g e
Ġc l
Ġin t
ĠâĢ ĵ
ĠS t
al ly
Ġb ut
u b
ĠC h
Ġ im
en d
k s
en ce
a us
Ġw e
ag e
Ġa d
o ver
c es
r ic
a ce
c c
Ġcon t
Ġit s
ct ion
l and
Ġon e
i re
o v
Ġc oun
f f
ĠA n
u p
Ġm e
Ġh is
a v
o od
or y
re n
Ġ V
Ġd is
im e
Ġre s
Ġy ear
Ġs p
us t
ter n
re e
ĠT h
Ġp art
i e
Ġus ed
ig n
Ġm ore
d s
ad e
an ce
ĠA l
) .
c on
or m
ir st
p t
ver y
ak e
v el
p h
Ġc all
it ed
Ġm any
a ch
Ġa g
Ġd o
ow n
cl ud
o k
er m
ol og
u e
Ġcom m
al s
Ġcoun tr
Ġs y
) ,
Ġwh o
on e
Ġs pe
Ġm ost
res s
ing s
i ver
l ic
a re
Ġab out
Ġ2 0
re at
Ġin clud
Ġh ad
le ct
Ġs ome
ab le
Ġs c
Ġf irst
ation al
ĠI t
Ġsu ch
ĠE n
ent s
ic e
Ġint o
Ġ j
Ġs o
aus e
ac k
Ġg r
en s
el y
Ġth an
Ġt e
p ort
i ed
Ġcall ed
Ġp er
Ġe v
on s
os e
it ion
ic s
Ġbe en
Ġp re
ik e
mer ic
ay s
w e
Ġt w
Ġd if
or s
i le
Ġk n
f ter
ol l
a w
Ġb et
Ġo ut
Ġ 3
st em
Ġp r
il d
Ġ1 8
ĠA meric
it e
or d
Ġ2 00
ar ch
Ġthe re
Ġp h
as e
l es
is m
o b
in d
Ġo ver
r y
Ġ ro
Ġwhe n
am p
Ġl ar
it ies
os s
t en
Ġus e
ur ing
Ġ up
t e
Ġthe m
Ġm ay
ĠUn ited
Ġre l
r ough
he d
c ed
Ġin d
er v
Ġc ent
Ġwor k
ĠR e
en er
Ġfor m
ĠA r
Ġa ct
Ġtw o
Ġpro du
j ect
Ġt ime
ĠEn g
Ġw ill
o ve
i ent
Ġyear s
Ġm ade
i um
Ġdif fer
y s
I n
w n
b s
over n
Ġn um
i et
Ġd es
ĠTh is
Ġin f
ar k
we en
ist s
Ġwor ld
Ġthe se
a il
at h
g an
Ġf l
Ġm et
r on
ow er
Ġsy stem
Ġcon s
Ġon ly
Ġ qu
u ally
Ġl ike
i ous
Ġbet ween
Ġre g
Ġne w
Ġc ol
if ic
c re
Ġa m
ar s
he s
he n
Ġw ould
ul ar
Ġc o
l ish
Ġre c
t ain
ut ion
c ial
u ro
Ġun der
n e
g r
ur al
is s
Ġs m
Ġa pp
Ġb l
as ed
id ent
ic t
ur y
g y
Ġst ud
u c
us tr
i o
Ġdiffer ent
ou th
Ġbec ause
he m
1 9
olog y
f t
overn ment
vel op
in t
Ġa fter
Ġ very
r an
Ġp ol
Ġth rough
Ġan im
ag es
ĠH e
Ġof f
Ġwhe re
in es
ol d
Ġf ound
Ġw ater
Ġ Y
om et
Ġb u
Ġch ang
Ġin v
Ġ 4
Ġpl an
Ġ ra
ĠA s
Ġs ur
Ġe lect
ot h
ĠSt ates
Ġe ar
ub lic
Ġh ow
im es
Ġb o
u res
Ġm od
Ġan y
Ġt ra
Ġp ers
Ġm ake
Ġin ter
u al
Ġa c
Ġa cc
c ess
Ġde velop
ĠE uro
c y
ang u
or th
Ġsu pp
Ġg ener
u g
Ġ 5
Ġp res
ment s
ĠAmeric an
Ġs a
e ver
Ġc ar
Ġpro v
Ġe m
Ġp o
Ġp op
Ġs ame
Ġcountr ies
ou p
Ġg overnment
at ive
Ġw rit
Ġsm all
it s
u ch
00 0
g est
ur n
ĠN ew
f ore
amp le
Ġcountr y
Ġat t
ĠD e
if e
at ing
t ing
iver s
Ġ20 1
ĠEuro pe
âĢ Ļ
in ce
er n
ar m
on d
ĠEng lish
ro w
ot her
Ġp ar
Ġh um
Ġcon st
c ent
Ġe ff
Ġn o
Ġm an
Ġkn own
in s
Ġm on
Ġc ould
ic k
Ġre m
ro l
t y
Ġre p
Ġc ap
âĢ ĵ
Ġde f
Ġex ample
us s
ru ct
Ġl angu
Ġof ten
Ġsu b
f ul
Ġw ell
Ġnum ber
i x
I t
Ġst ate
Ġd uring
Ġc re
