{"<bos>":0,"<pad>":1,"<eos>":2,"<unk>":3,"!":4,"\"":5,"#":6,"$":7,"%":8,"&":9,"'":10,"(":11,")":12,"*":13,"+":14,",":15,"-":16,".":17,"/":18,"0":19,"1":20,"2":21,"3":22,"4":23,"5":24,"6":25,"7":26,"8":27,"9":28,":":29,";":30,"<":31,"=":32,">":33,"?":34,"@":35,"A":36,"B":37,"C":38,"D":39,"E":40,"F":41,"G":42,"H":43,"I":44,"J":45,"K":46,"L":47,"M":48,"N":49,"O":50,"P":51,"Q":52,"R":53,"S":54,"T":55,"U":56,"V":57,"W":58,"X":59,"Y":60,"Z":61,"[":62,"\\":63,"]":64,"^":65,"_":66,"`":67,"a":68,"b":69,"c":70,"d":71,"e":72,"f":73,"g":74,"h":75,"i":76,"j":77,"k":78,"l":79,"m":80,"n":81,"o":82,"p":83,"q":84,"r":85,"s":86,"t":87,"u":88,"v":89,"w":90,"x":91,"y":92,"z":93,"{":94,"|":95,"}":96,"~":97,"¡":98,"¢":99,"£":100,"¤":101,"¥":102,"¦":103,"§":104,"¨":105,"©":106,"ª":107,"«":108,"¬":109,"®":110,"¯":111,"°":112,"±":113,"²":114,"³":115,"´":116,"µ":117,"¶":118,"·":119,"¸":120,"¹":121,"º":122,"»":123,"¼":124,"½":125,"¾":126,"¿":127,"À":128,"Á":129,"Â":130,"Ã":131,"Ä":132,"Å":133,"Æ":134,"Ç":135,"È":136,"É":137,"Ê":138,"Ë":139,"Ì":140,"Í":141,"Î":142,"Ï":143,"Ð":144,"Ñ":145,"Ò":146,"Ó":147,"Ô":148,"Õ":149,"Ö":150,"×":151,"Ø":152,"Ù":153,"Ú":154,"Û":155,"Ü":156,"Ý":157,"Þ":158,"ß":159,"à":160,"á":161,"â":162,"ã":163,"ä":164,"å":165,"æ":166,"ç":167,"è":168,"é":169,"ê":170,"ë":171,"ì":172,"í":173,"î":174,"ï":175,"ð":176,"ñ":177,"ò":178,"ó":179,"ô":180,"õ":181,"ö":182,"÷":183,"ø":184,"ù":185,"ú":186,"û":187,"ü":188,"ý":189,"þ":190,"ÿ":191,"Ā":192,"ā":193,"Ă":194,"ă":195,"Ą":196,"ą":197,"Ć":198,"ć":199,"Ĉ":200,"ĉ":201,"Ċ":202,"ċ":203,"Č":204,"č":205,"Ď":206,"ď":207,"Đ":208,"đ":209,"Ē":210,"ē":211,"Ĕ":212,"ĕ":213,"Ė":214,"ė":215,"Ę":216,"ę":217,"Ě":218,"ě":219,"Ĝ":220,"ĝ":221,"Ğ":222,"ğ":223,"Ġ":224,"ġ":225,"Ģ":226,"ģ":227,"Ĥ":228,"ĥ":229,"Ħ":230,"ħ":231,"Ĩ":232,"ĩ":233,"Ī":234,"ī":235,"Ĭ":236,"ĭ":237,"Į":238,"į":239,"İ":240,"ı":241,"Ĳ":242,"ĳ":243,"Ĵ":244,"ĵ":245,"Ķ":246,"ķ":247,"ĸ":248,"Ĺ":249,"ĺ":250,"Ļ":251,"ļ":252,"Ľ":253,"ľ":254,"Ŀ":255,"ŀ":256,"Ł":257,"ł":258,"Ń":259,"Ġt":260,"Ġa":261,"he":262,"in":263,"er":264,"Ġthe":265,"on":266,"čĊ":267,"re":268,"Ġo":269,"at":270,"Ġs":271,"an":272,"en":273,"Ġc":274,"es":275,"is":276,"Ġw":277,"ed":278,"al":279,"or":280,"it":281,"Ġof":282,"Ġan":283,"Ġp":284,"ar":285,"Ġb":286,"Ġf":287,"Ġin":288,"Ġm":289,"ic":290,"Ġand":291,"ing":292,"os":293,"ion":294,"ou":295,"as":296,"Ġto":297,"Ġd":298,"le":299,"om":300,"Ġh":301,"ent":302,"Ġth":303,"ĠA":304,"eos":305,"Ġl":306,"il":307,"Ġe":308,"ct":309,"us":310,"ro":311,"ĠT":312,"Ġis":313,"Ġn":314,"Ġre":315,"el":316,"ol":317,"ĠS":318,"ation":319,"et":320,"im":321,"Ġg":322,"am":323,"id":324,"ĠC":325,"ot":326,"Ġbe":327,"ce":328,"ur":329,"ve":330,"ly":331,"ch":332,"Ġ1":333,"ver":334,"ad":335,"ut":336,"st":337,"ig":338,"ĠI":339,"ĠM":340,"Ġfor":341,"ir":342,"Ġ(":343,"ow":344,"Ġon":345,"un":346,"ĠThe":347,"Ġst":348,"her":349,"Ġas":350,"Ġare":351,"ay":352,"Ġthat":353,"op":354,"ul":355,"ist":356,"ĠP":357,"Ġal":358,"ĠB":359,"th":360,"ter":361,"ra":362,"ĠE":363,"oun":364,"Ġor":365,"ith":366,"Ġwh":367,"um":368,"Ġcon":369,"ies":370,"and":371,"Ġit":372,"em":373,"Ġwith":374,"ers":375,"Ġwas":376,"if":377,"od":378,"Ġpro":379,"Ġby":380,"ĠR":381,"ag":382,"rom":383,"ĠH":384,"âĢ":385,"ĠF":386,"Ġcom":387,"ĠN":388,"est":389,"ĠG":390,"Ġ2":391,"ĠW":392,"Ġde":393,"res":394,"pe":395,"Ġr":396,"ld":397,"ĠL":398,"Ġex":399,"iv":400,"ĠD":401,"ain":402,"ill":403,"Ġus":404,"ity":405,"Ġfrom":406,"all":407,"ak":408,"se":409,"Ġat":410,"ab":411,"ate":412,"ts":413,"Ġsu":414,"ore":415,"ĠIn":416,"ac":417,"ther":418,"00":419,"ment":420,"ial":421,"Ġhe":422,"'s":423,"ia":424,"ud":425,"Ġ19":426,"Ġha":427,"ĠU":428,"Ġse":429,"Ġv":430,"ich":431,"qu":432,"oc":433,"igh":434,"Ġk":435,"ĠJ":436,"ive":437,"ap":438,"ian":439,"ĠO":440,"ess":441,"ical":442,"Ġnot":443,"ber":444,"Ġ\"":445,"ure":446,"og":447,"art":448,"Ġwor":449,"Ġy":450,"ant":451,"Ġne":452,"tr":453,"pp":454,"Ġcan":455,"Ġhave":456,"ect":457,"The":458,"Ġwhich":459,"ort":460,"Ġun":461,"ome":462,"gh":463,"Ġle":464,"Ġch":465,"ost":466,"our":467,"ell":468,"Ġpl":469,"ary":470,"ound":471,"ated":472,"ang":473,"eop":474,"Ġen":475,"ĠâĢ":476,"ere":477,"ions":478,"eople":479,"Ġsh":480,"ĠK":481,"so":482,"Ġab":483,"ip":484,"Ġhas":485,"ish":486,"Ġar":487,"ong":488,"any":489,"out":490,"ough":491,"per":492,"ib":493,"Ġwere":494,"ame":495,"ard":496,"ater":497,"Ġother":498,"ous":499,"ear":500,"ast":501,"ru":502,"ep":503,"cl":504,"iz":505,"Ġcomp":506,"ans":507,"Ġpeople":508,"ine":509,"ations":510,"Ġ-":511,"Ġalso":512,"ight":513,"ide":514,"Ġwhe":515,"fer":516,"Ġtheir":517,"Ġthey":518,"ĠUn":519,"du":520,"der":521,"mer":522,"ew":523,"ould":524,"ult":525,"ates":526,"rit":527,"act":528,"Ġbec":529,"Ġall":530,"ik":531,"pl":532,"Ġthis":533,"Ġtr":534,"ass":535,"ge":536,"Ġcl":537,"Ġint":538,"ĠâĢĵ":539,"ĠSt":540,"ally":541,"Ġbut":542,"ub":543,"ĠCh":544,"Ġim":545,"end":546,"ks":547,"ence":548,"aus":549,"Ġwe":550,"age":551,"Ġad":552,"over":553,"ces":554,"ric":555,"ace":556,"cc":557,"Ġcont":558,"Ġits":559,"ction":560,"land":561,"Ġone":562,"ire":563,"ov":564,"Ġcoun":565,"ff":566,"ĠAn":567,"up":568,"Ġme":569,"Ġhis":570,"av":571,"ood":572,"ory":573,"ren":574,"ĠV":575,"Ġdis":576,"ime":577,"Ġres":578,"Ġyear":579,"Ġsp":580,"ust":581,"tern":582,"ree":583,"ĠTh":584,"Ġpart":585,"ie":586,"Ġused":587,"ign":588,"Ġmore":589,"ds":590,"ade":591,"ance":592,"ĠAl":593,").":594,"con":595,"orm":596,"irst":597,"pt":598,"very":599,"ake":600,"vel":601,"ph":602,"Ġcall":603,"ited":604,"Ġmany":605,"ach":606,"Ġag":607,"Ġdo":608,"own":609,"clud":610,"ok":611,"erm":612,"olog":613,"ue":614,"Ġcomm":615,"als":616,"Ġcountr":617,"Ġsy":618,"),":619,"Ġwho":620,"one":621,"Ġspe":622,"Ġmost":623,"ress":624,"ings":625,"iver":626,"lic":627,"are":628,"Ġabout":629,"Ġ20":630,"reat":631,"Ġinclud":632,"Ġhad":633,"lect":634,"Ġsome":635,"able":636,"Ġsc":637,"Ġfirst":638,"ational":639,"ĠIt":640,"Ġsuch":641,"ĠEn":642,"ents":643,"ice":644,"Ġinto":645,"Ġj":646,"Ġso":647,"ause":648,"ack":649,"Ġgr":650,"ens":651,"ely":652,"Ġthan":653,"Ġte":654,"port":655,"ied":656,"Ġcalled":657,"Ġper":658,"Ġev":659,"ons":660,"ose":661,"ition":662,"ics":663,"Ġbeen":664,"Ġpre":665,"ike":666,"meric":667,"ays":668,"we":669,"Ġtw":670,"Ġdif":671,"ors":672,"ile":673,"Ġkn":674,"fter":675,"oll":676,"aw":677,"Ġbet":678,"Ġout":679,"Ġ3":680,"stem":681,"Ġpr":682,"ild":683,"Ġ18":684,"ĠAmeric":685,"ite":686,"ord":687,"Ġ200":688,"arch":689,"Ġthere":690,"Ġph":691,"ase":692,"les":693,"ism":694,"ob":695,"ind":696,"Ġover":697,"ry":698,"Ġro":699,"Ġwhen":700,"amp":701,"Ġlar":702,"ities":703,"oss":704,"ten":705,"Ġuse":706,"uring":707,"Ġup":708,"te":709,"Ġthem":710,"Ġmay":711,"ĠUnited":712,"Ġrel":713,"rough":714,"hed":715,"ced":716,"Ġind":717,"erv":718,"Ġcent":719,"Ġwork":720,"ĠRe":721,"ener":722,"Ġform":723,"ĠAr":724,"Ġact":725,"Ġtwo":726,"Ġprodu":727,"ject":728,"Ġtime":729,"ĠEng":730,"Ġwill":731,"ove":732,"ient":733,"Ġyears":734,"Ġmade":735,"ium":736,"Ġdiffer":737,"ys":738,"In":739,"wn":740,"bs":741,"overn":742,"Ġnum":743,"iet":744,"Ġdes":745,"ĠThis":746,"Ġinf":747,"ark":748,"ween":749,"ists":750,"Ġworld":751,"Ġthese":752,"ail":753,"ath":754,"gan":755,"Ġfl":756,"Ġmet":757,"ron":758,"ower":759,"Ġsystem":760,"Ġcons":761,"Ġonly":762,"Ġqu":763,"ually":764,"Ġlike":765,"ious":766,"Ġbetween":767,"Ġreg":768,"Ġnew":769,"Ġcol":770,"ific":771,"cre":772,"Ġam":773,"ars":774,"hes":775,"hen":776,"Ġwould":777,"ular":778,"Ġco":779,"lish":780,"Ġrec":781,"tain":782,"ution":783,"cial":784,"uro":785,"Ġunder":786,"ne":787,"gr":788,"ural":789,"iss":790,"Ġsm":791,"Ġapp":792,"Ġbl":793,"ased":794,"ident":795,"ict":796,"ury":797,"gy":798,"Ġstud":799,"uc":800,"ustr":801,"io":802,"Ġdifferent":803,"outh":804,"Ġbecause":805,"hem":806,"19":807,"ology":808,"ft":809,"overnment":810,"velop":811,"int":812,"Ġafter":813,"Ġvery":814,"ran":815,"Ġpol":816,"Ġthrough":817,"Ġanim":818,"ages":819,"ĠHe":820,"Ġoff":821,"Ġwhere":822,"ines":823,"old":824,"Ġfound":825,"Ġwater":826,"ĠY":827,"omet":828,"Ġbu":829,"Ġchang":830,"Ġinv":831,"Ġ4":832,"Ġplan":833,"Ġra":834,"ĠAs":835,"Ġsur":836,"Ġelect":837,"oth":838,"ĠStates":839,"Ġear":840,"ublic":841,"Ġhow":842,"imes":843,"Ġbo":844,"ures":845,"Ġmod":846,"Ġany":847,"Ġtra":848,"Ġpers":849,"Ġmake":850,"Ġinter":851,"ual":852,"Ġac":853,"Ġacc":854,"cess":855,"Ġdevelop":856,"ĠEuro":857,"cy":858,"angu":859,"orth":860,"Ġsupp":861,"Ġgener":862,"ug":863,"Ġ5":864,"Ġpres":865,"ments":866,"ĠAmerican":867,"Ġsa":868,"ever":869,"Ġcar":870,"Ġprov":871,"Ġem":872,"Ġpo":873,"Ġpop":874,"Ġsame":875,"Ġcountries":876,"oup":877,"Ġgovernment":878,"ative":879,"Ġwrit":880,"Ġsmall":881,"its":882,"uch":883,"000":884,"gest":885,"urn":886,"ĠNew":887,"fore":888,"ample":889,"Ġcountry":890,"Ġatt":891,"ĠDe":892,"ife":893,"ating":894,"ting":895,"ivers":896,"Ġ201":897,"ĠEurope":898,"âĢĻ":899,"ince":900,"ern":901,"arm":902,"ond":903,"ĠEnglish":904,"row":905,"other":906,"Ġpar":907,"Ġhum":908,"Ġconst":909,"cent":910,"Ġeff":911,"Ġno":912,"Ġman":913,"Ġknown":914,"ins":915,"Ġmon":916,"Ġcould":917,"ick":918,"Ġrem":919,"rol":920,"ty":921,"Ġrep":922,"Ġcap":923,"âĢĵ":924,"Ġdef":925,"Ġexample":926,"uss":927,"ruct":928,"Ġlangu":929,"Ġoften":930,"Ġsub":931,"ful":932,"Ġwell":933,"Ġnumber":934,"ix":935,"It":936,"Ġstate":937,"Ġduring":938,"Ġcre":939}